{"<s>":0,"<pad>":1,"</s>":2,"<unk>":3,"<mask>":4,"!":5,"\"":6,"#":7,"$":8,"%":9,"&":10,"'":11,"(":12,")":13,"*":14,"+":15,",":16,"-":17,".":18,"/":19,"0":20,"1":21,"2":22,"3":23,"4":24,"5":25,"6":26,"7":27,"8":28,"9":29,":":30,";":31,"<":32,"=":33,">":34,"?":35,"@":36,"A":37,"B":38,"C":39,"D":40,"E":41,"F":42,"G":43,"H":44,"I":45,"J":46,"K":47,"L":48,"M":49,"N":50,"O":51,"P":52,"Q":53,"R":54,"S":55,"T":56,"U":57,"V":58,"W":59,"X":60,"Y":61,"Z":62,"[":63,"\\":64,"]":65,"^":66,"_":67,"`":68,"a":69,"b":70,"c":71,"d":72,"e":73,"f":74,"g":75,"h":76,"i":77,"j":78,"k":79,"l":80,"m":81,"n":82,"o":83,"p":84,"q":85,"r":86,"s":87,"t":88,"u":89,"v":90,"w":91,"x":92,"y":93,"z":94,"{":95,"|":96,"}":97,"~":98,"¡":99,"¢":100,"£":101,"¤":102,"¥":103,"¦":104,"§":105,"¨":106,"©":107,"ª":108,"«":109,"¬":110,"®":111,"¯":112,"°":113,"±":114,"²":115,"³":116,"´":117,"µ":118,"¶":119,"·":120,"¸":121,"¹":122,"º":123,"»":124,"¼":125,"½":126,"¾":127,"¿":128,"À":129,"Á":130,"Â":131,"Ã":132,"Ä":133,"Å":134,"Æ":135,"Ç":136,"È":137,"É":138,"Ê":139,"Ë":140,"Ì":141,"Í":142,"Î":143,"Ï":144,"Ð":145,"Ñ":146,"Ò":147,"Ó":148,"Ô":149,"Õ":150,"Ö":151,"×":152,"Ø":153,"Ù":154,"Ú":155,"Û":156,"Ü":157,"Ý":158,"Þ":159,"ß":160,"à":161,"á":162,"â":163,"ã":164,"ä":165,"å":166,"æ":167,"ç":168,"è":169,"é":170,"ê":171,"ë":172,"ì":173,"í":174,"î":175,"ï":176,"ð":177,"ñ":178,"ò":179,"ó":180,"ô":181,"õ":182,"ö":183,"÷":184,"ø":185,"ù":186,"ú":187,"û":188,"ü":189,"ý":190,"þ":191,"ÿ":192,"Ā":193,"ā":194,"Ă":195,"ă":196,"Ą":197,"ą":198,"Ć":199,"ć":200,"Ĉ":201,"ĉ":202,"Ċ":203,"ċ":204,"Č":205,"č":206,"Ď":207,"ď":208,"Đ":209,"đ":210,"Ē":211,"ē":212,"Ĕ":213,"ĕ":214,"Ė":215,"ė":216,"Ę":217,"ę":218,"Ě":219,"ě":220,"Ĝ":221,"ĝ":222,"Ğ":223,"ğ":224,"Ġ":225,"ġ":226,"Ģ":227,"ģ":228,"Ĥ":229,"ĥ":230,"Ħ":231,"ħ":232,"Ĩ":233,"ĩ":234,"Ī":235,"ī":236,"Ĭ":237,"ĭ":238,"Į":239,"į":240,"İ":241,"ı":242,"Ĳ":243,"ĳ":244,"Ĵ":245,"ĵ":246,"Ķ":247,"ķ":248,"ĸ":249,"Ĺ":250,"ĺ":251,"Ļ":252,"ļ":253,"Ľ":254,"ľ":255,"Ŀ":256,"ŀ":257,"Ł":258,"ł":259,"Ń":260,"00":261,"Ġ'":262,"':":263,"0000":264,"on":265,"00000000":266,"ct":267,"ce":268,"al":269,"ion":270,"ction":271,"un":272,"fun":273,"Ġ;":274,"function":275,"Ġ',":276,"er":277,"re":278,"ra":279,"ss":280,"in":281,"tra":282,"dd":283,"as":284,"vi":285,"ew":286,"Ġ1":287,"view":288,"Ġview":289,"',":290,"ress":291,"ddress":292,"address":293,")':":294,"bl":295,"0000000000000000":296,"ri":297,"{'":298,"25":299,"Ġ0":300,"is":301,"gas":302,"[{'":303,"}]":304,"čĊ":305,"de":306,"pa":307,"int":308,"once":309,"nonce":310,"ty":311,"ns":312,"uint":313,"trans":314,"256":315,"ck":316,"an":317,"all":318,"Ġ2":319,"ch":320,"Ġpa":321,"ance":322,"ble":323,"able":324,"Pri":325,"Ġpay":326,"Ġpayable":327,"pl":328,"Ġ3":329,"us":330,"ue":331,"mb":332,"()":333,"()':":334,"alance":335,"one":336,"None":337,"balance":338,"val":339,"ock":340,"ee":341,"In":342,"se":343,"pe":344,"Price":345,"dex":346,"Index":347,"con":348,"ain":349,"tract":350,"mber":351,"umber":352,"Number":353,"action":354,"block":355,"Id":356,"value":357,"transaction":358,"go":359,"gasPrice":360,"type":361,"blockNumber":362,"chain":363,"transactionIndex":364,"chainId":365,"contract":366,"plus":367,"goplus":368,"ro":369,"call":370,"Fee":371,"ma":372,"max":373,"ĠF":374,"alse":375,"ĠFalse":376,"00000000000000000000000000000000":377,"Per":378,"rity":379,"Gas":380,"FeePer":381,"FeePerGas":382,"Ġcall":383,"000":384,"fer":385,"to":386,"000000000":387,"Ġ4":388,"transfer":389,"trace":390,"te":391,"Ġ5":392,"ac":393,"ow":394,"rom":395,"Ġcalltrace":396,"ist":397,"ack":398,"71":399,"99":400,"List":401,"28":402,"61":403,"],":404,"65":405,"ner":406,"01":407,"75":408,"68":409,"64":410,"74":411,"21":412,"38":413,"24":414,"05":415,"Pa":416,"94":417,"78":418,"95":419,"[],":420,"acce":421,"91":422,"Ġto":423,"63":424,"04":425,"73":426,"ority":427,"98":428,"yPa":429,"access":430,"yParity":431,"accessList":432,"maxPri":433,"maxFeePerGas":434,"orityFeePerGas":435,"maxPriorityFeePerGas":436,"Ġ[],":437,"08":438,"23":439,"03":440,"'}]":441,"Ġ_":442,"tch":443,"up":444,"ff":445,"back":446,"dis":447,"allback":448,"tcher":449,"dispa":450,"dispatcher":451,"93":452,"fallback":453,"ve":454,"Ġ21":455,"0000000000":456,"Ġtransfer":457,"pro":458,"000000000000":459,"tes":460,"owance":461,"im":462,"ppro":463,"02":464,"dec":465,"Ġ38":466,"ytes":467,"bytes":468,"Ġ8":469,"Ġ15":470,"Ow":471,"Owner":472,"18":473,"ol":474,"Ġ37":475,"15":476,"ed":477,"72":478,"66":479,"14":480,"Of":481,"tal":482,"From":483,"me":484,"35":485,"06":486,"from":487,"--":488,"ge":489,"34":490,"ply":491,"Sup":492,"pprove":493,"Supply":494,"76":495,"balanceOf":496,"talSupply":497,"000000000000000000000000000000000000000000000000":498,"32":499,"92":500,"Ġ14":501,"Ġp":502,"hi":503,"approve":504,"11":505,"ca":506,"co":507,"96":508,"Ġ6":509,"Ġpu":510,"ll":511,"77":512,"ase":513,"Owners":514,"hip":515,"ame":516,"Ownership":517,"Ġpure":518,"ke":519,"54":520,"33":521,"To":522,"name":523,"Ġ21000":524,"ymb":525,"ymbol":526,"symbol":527,"als":528,"decim":529,"decimals":530,"Ġ18":531,"58":532,"Ġ'_":533,"97":534,"allowance":535,"22":536,"aseA":537,"ĠT":538,"reaseA":539,"code":540,"07":541,"ĠTr":542,"\"{'":543,"\"}]":544,"}\"}]":545,"Ġ\"{'":546,"Ġ'}\"}]":547,"ĠTrue":548,"Ġ\"{'_":549,"Ġ11":550,"44":551,"26":552,"owner":553,"88":554,"31":555,"09":556,"af":557,"45":558,"000000000000000000000000000000000000000000000000000000000000":559,"Ġ9":560,"set":561,"Bl":562,"ad":563,"36":564,"48":565,"27":566,"th":567,"xb":568,"xf":569,"ab":570,"get":571,"20":572,"55":573,"ĠbalanceOf":574,"Black":575,"gra":576,"Ġ7":577,"xd":578,"totalSupply":579,"16":580,"nd":581,"llowance":582,"reaseAllowance":583,"Ġ25":584,"Ġ13":585,"90":586,"xe":587,"Toke":588,"use":589,"st":590,"aa":591,"grade":592,"bu":593,"Ġapprove":594,"Ġ28":595,"Ġ--":596,"Ġ2000000000":597,"ĠtransferFrom":598,"29":599,"41":600,"67":601,"nt":602,"or":603,"85":604,"db":605,"cb":606,"ate":607,"0000000000000000000000000000000000000000000000000000000000000000":608,"ĠtotalSupply":609,"70":610,"ing":611,"fa":612,"ffff":613,"13":614,"fb":615,"84":616,"Ġ12":617,"62":618,"transferFrom":619,"ĠNone":620,"Ġname":621,"eb":622,"Ġsymbol":623,"rn":624,"Ġdecimals":625,"fc":626,"Ġ20":627,"79":628,"oun":629,"Ġallowance":630,"min":631,"Ġre":632,"xc":633,"00000":634,"upgrade":635,"at":636,"inc":637,"12":638,"burn":639,"mint":640,"dc":641,"43":642,"46":643,"Ġ16":644,"ec":645,"53":646,"81":647,"ef":648,"pause":649,"56":650,"51":651,"Ġowner":652,"calltrace":653,"30":654,"Ġ27":655,"bb":656,"BlackList":657,"da":658,"ea":659,"82":660,"39":661,"Ġset":662,"37":663,"50":664,"xa":665,"ted":666,"Ġget":667,"57":668,"Ġ-":669,"Ġde":670,"52":671,"17":672,"cf":673,"Ġ90000":674,"47":675,"Ġ17":676,"Tra":677,"ange":678,"fd":679,"change":680,"cc":681,"42":682,"7128":683,"Ġ20000000000":684,"used":685,"fe":686,"80":687,"86":688,"Ġ'}]":689,"pproval":690,"Ġe":691,"00000000000000000000000000000000000000000000000000000000000000":692,"49":693,"ĠtransferOwnership":694,"transferOwnership":695,"Ġ207128":696,"Ġ1500000000":697,"decreaseAllowance":698,"increaseAllowance":699,"ith":700,"Ġ10":701,"69":702,"000000000000000000000000":703,"10":704,"dra":705,"Token":706,"le":707,"19":708,"noun":709,"ceOwnership":710,"nounceOwnership":711,"60":712,"83":713,"0000000":714,"Trans":715,"000000000000000000000000000000000000000000000000000000000000000":716,"Address":717,"ba":718,"bc":719,"59":720,"00000000000":721,"Tokens":722,"df":723,"40":724,"87":725,"Transfer":726,"draw":727,"Ġs":728,"unpause":729,"ithdraw":730,"pre":731,"it":732,"Call":733,"ken":734,"bf":735,"upgradeTo":736,"ool":737,"preca":738,"add":739,"reaseApproval":740,"And":741,"withdraw":742,"ers":743,"Ġ1000000000":744,"bool":745,"ther":746,"Ġse":747,"mo":748,"ation":749,"und":750,"ar":751,"AndCall":752,"Mint":753,"move":754,"Ad":755,"Ġ19":756,"Ġ102":757,"89":758,"bd":759,"ffffffff":760,"Fund":761,"Ġsend":762,"Ġ22":763,"000000000000000":764,"Ġmint":765,"Admin":766,"000000":767,"Ġ24":768,"Ġburn":769,"Ġ100000000":770,"Ġ35":771,"ae":772,"Ġether":773,"St":774,"afe":775,"All":776,"ment":777,"cd":778,"IN":779,"Ġis":780,"be":781,"um":782,"dee":783,"Ġ23":784,"00000000000000":785,"ple":786,"MA":787,"ring":788,"Funds":789,"tor":790,"Re":791,"Ġ42":792,"imum":793,"For":794,"tion":795,"roy":796,"admin":797,"stroy":798,"Ġc":799,"Ġ250000":800,"string":801,"Ġ----":802,"Ġ45":803,"Ġ65":804,"plement":805,"Ġ102000000000":806,"balances":807,"plementation":808,"Ġ99":809,"Rate":810,"MAX":811,"Ġ94":812,"owed":813,"Ġ63":814,"0000000000000":815,"Ġ105":816,"la":817,"Ġ26":818,"Ġ61":819,"Ġ75":820,"ĠincreaseAllowance":821,"ĠdecreaseAllowance":822,"Ġpaused":823,"paused":824,"implementation":825,"Ġ31":826,"ssue":827,"Ġ50000":828,"Ġ64":829,"Ġchange":830,"505":831,"Ġ34":832,"ter":833,"po":834,"ersion":835,"allowed":836,"Ġ74":837,"isted":838,"renounceOwnership":839,"ĠrenounceOwnership":840,"Ġ33":841,"eeee":842,"Ġ48":843,"issue":844,"995":845,"Ġ100":846,"ish":847,"644":848,"INT":849,"Ġ71":850,"Ġ55":851,"Para":852,"Ġ118":853,"ime":854,"ul":855,"Ġpause":856,"inish":857,"Ġ73":858,"deem":859,"Ġ51":860,"Ġ41":861,"ze":862,"Ġ68":863,"Ġ32":864,"rd":865,"Ġunpause":866,"Ġ36":867,"version":868,"atus":869,"Ġ---":870,"token":871,"Ġ78":872,"Status":873,"791":874,"Ġwithdraw":875,"Ġtoken":876,"Con":877,"Ġ95":878,"pos":879,"Po":880,"ĠupgradeTo":881,"Listed":882,"751":883,"maximum":884,"dAddress":885,"ms":886,"UINT":887,"938":888,"Params":889,"precated":890,"Point":891,"Ġ115":892,"precate":893,"BlackListed":894,"asis":895,"asisPoint":896,"addBlackList":897,"moveBlackList":898,"BlackFunds":899,"BlackListStatus":900,"Ġ44":901,"asisPoints":902,"maximumFee":903,"stroyBlackFunds":904,"basisPoints":905,"basisPointsRate":906,"upgradedAddress":907,"Ġf":908,"increaseApproval":909,"decreaseApproval":910,"Ġ101":911,"Ġ121":912,"Ġ100000":913,"515":914,"Ġ104":915,"gent":916,"et":917,"ount":918,"ctor":919,"Ġ124":920,"Ġ46":921,"795":922,"615":923,"ap":924,"700":925,"908":926,"Minter":927,"posit":928,"Up":929,"Ġ43":930,"Ġ108":931,"Ac":932,"Ġ29":933,"Ġ50000000000":934,"00000000000000000":935,"984":936,"Approve":937,"ale":938,"Ġ135":939,"RI":940,"_(":941,"Ġ54":942,"Ġ128":943,"756":944,"001":945,"248":946,"494":947,"Ġ91":948,"Ġ53":949,"Upgrade":950,"Ġ125":951,"leg":952,"305":953,"Ġ114":954,"Ġ66":955,"Ġ134":956,"ali":957,"Ġ58":958,"Ġ138":959,"Ġ103":960,"Ġ39":961,"nonces":962,"Time":963,"719":964,"coun":965,"TransferFrom":966,"ForAll":967,"Pro":968,"count":969,"Ġ123":970,"714":971,"ctory":972,"Ġ98":973,"Ġ194":974,"00000000000000000000000000000000000000000000000000000000000000000000000000000000000000000000000000000000000000000000000000000000":975,"901":976,"Ma":977,"774":978,"Ġ52":979,"Ġ93":980,"259":981,"Ġ30":982,"739":983,"Ġ500000":984,"Approved":985,"Ġ72":986,"Ġ165":987,"745":988,"Ġ21000000000":989,"ffffffffffffffff":990,"laim":991,"afeTransferFrom":992,"0000000000000000000000000000000000000000000000000000000000000001":993,"Ġ111":994,"Ġ3000000000":995,"art":996,"lock":997,"015":998,"Agent":999,"979":1000,"Ġ174":1001,"947":1002,"Ġ168":1003,"Ġ84":1004,"Ġ49":1005,"Ġ56":1006,"004":1007,"288":1008,"258":1009,"365":1010,"Ġ47":1011,"968":1012,"pt":1013,"Ġ161":1014,"Account":1015,"002":1016,"ts":1017,"ET":1018,"9999":1019,"782":1020,"factory":1021,"Ġ193":1022,"Ord":1023,"[]":1024,"218":1025,"965":1026,"Ġ77":1027,"URI":1028,"ded":1029,"en":1030,"324":1031,"Ġ195":1032,"ETH":1033,"223":1034,"Ġ50":1035,"Ġadmin":1036,"206":1037,"ator":1038,"Ġ40":1039,"oca":1040,"Ġ88":1041,"217":1042,"616":1043,"755":1044,"Ġ30000000000":1045,"Ġ164":1046,"Ġ62":1047,"Ġ76":1048,"913":1049,"764":1050,"por":1051,"214":1052,"024":1053,"018":1054,"681":1055,"008":1056,"Ġsw":1057,"Ġ178":1058,"fdd":1059,"ver":1060,"per":1061,"Ġ171":1062,"Ġbalances":1063,"Ġ10000000000":1064,"148":1065,"accept":1066,"ult":1067,"Ġ81":1068,"905":1069,"Alloca":1070,"Inter":1071,"00000000000000000000000000000000000000000000000000000000":1072,"Ġ200000":1073,"ER":1074,"Ġ191":1075,"ĠMAX":1076,"Ġ122":1077,"210":1078,"Ġimplementation":1079,"Ġ57":1080,"733":1081,"face":1082,"718":1083,"461":1084,"Block":1085,"ard":1086,"Ġ92":1087,"Ġ175":1088,"xad":1089,"Interface":1090,"205":1091,"AL":1092,"Ġ60000":1093,"005":1094,"746":1095,"uppor":1096,"244":1097,"958":1098,"upports":1099,"711":1100,"upportsInterface":1101,"Ġ163":1102,"Ġ133":1103,"Au":1104,"acceptOwnership":1105,"748":1106,"vis":1107,"659":1108,"983":1109,"Ġ85":1110,"Ġ96":1111,"Ġallowed":1112,"mount":1113,"ĠgetOwner":1114,"getOwner":1115,"389":1116,"314":1117,"028":1118,"cec":1119,"063":1120,"Ġissue":1121,"048":1122,"Finish":1123,"col":1124,"3644":1125,"Ġ131":1126,"Finished":1127,"251":1128,"date":1129,"254":1130,"TI":1131,"perator":1132,"roll":1133,"Ġa":1134,"ves":1135,"Ġ59":1136,"088":1137,"784":1138,"6000":1139,"changeAdmin":1140,"ĠchangeAdmin":1141,"038":1142,"fff":1143,"Order":1144,"003":1145,"758":1146,"998":1147,"685":1148,"249":1149,"618":1150,"ribu":1151,"788":1152,"list":1153,"713":1154,"255":1155,"734":1156,"611":1157,"754":1158,"284":1159,"bdb":1160,"215":1161,"635":1162,"Ġredeem":1163,"Ġ67":1164,"688":1165,"684":1166,"985":1167,"Ġ136":1168,"655":1169,"ig":1170,"Ġ132":1171,"656":1172,"016":1173,"614":1174,"redeem":1175,"031":1176,"633":1177,"PL":1178,"234":1179,"731":1180,"997":1181,"SU":1182,"648":1183,"roller":1184,"xdc":1185,"712":1186,"xfb":1187,"970":1188,"285":1189,"adf":1190,"252":1191,"Ġ69":1192,"658":1193,"388":1194,"245":1195,"il":1196,"011":1197,"634":1198,"988":1199,"991":1200,"045":1201,"SUP":1202,"PLY":1203,"SUPPLY":1204,"Ġ106":1205,"039":1206,"785":1207,"944":1208,"xca":1209,"ingFinished":1210,"014":1211,"044":1212,"Minting":1213,"ding":1214,"Ġ126":1215,"035":1216,"726":1217,"xaf":1218,"211":1219,"033":1220,"735":1221,"459":1222,"654":1223,"eeeeeeee":1224,"715":1225,"Balance":1226,"Ġ116":1227,"hite":1228,"deprecated":1229,"Ġdeprecated":1230,"deprecate":1231,"Ġdeprecate":1232,"ĠisBlackListed":1233,"isBlackListed":1234,"962":1235,"setParams":1236,"ĠsetParams":1237,"645":1238,"ĠaddBlackList":1239,"removeBlackList":1240,"ĠremoveBlackList":1241,"getBlackListStatus":1242,"ĠgetBlackListStatus":1243,"ĠmaximumFee":1244,"destroyBlackFunds":1245,"034":1246,"ĠdestroyBlackFunds":1247,"Ġ60":1248,"ĠbasisPointsRate":1249,"ĠupgradedAddress":1250,"994":1251,"781":1252,"ĠincreaseApproval":1253,"ĠdecreaseApproval":1254,"legate":1255,"231":1256,"reate":1257,"010":1258,"742":1259,"tocol":1260,"troller":1261,"kens":1262,"ur":1263,"tocolFee":1264,"upgradeToAndCall":1265,"ĠupgradeToAndCall":1266,"253":1267,"rent":1268,"accf":1269,"993":1270,"216":1271,"386":1272,"235":1273,"666":1274,"948":1275,"384":1276,"Ġ141":1277,"969":1278,"eep":1279,"282":1280,"918":1281,"082":1282,"xfa":1283,"Ġ83":1284,"744":1285,"000000000000000000":1286,"046":1287,"058":1288,"022":1289,"934":1290,"986":1291,"041":1292,"036":1293,"vali":1294,"Ġ127":1295,"WETH":1296,"Amount":1297,"651":1298,"2195":1299,"981":1300,"Ġst":1301,"inishMinting":1302,"241":1303,"915":1304,"641":1305,"233":1306,"006":1307,"Ġ82":1308,"Ġ86":1309,"By":1310,"951":1311,"914":1312,"926":1313,"954":1314,"am":1315,"0000000000000000000000000":1316,"total":1317,"At":1318,"Ġversion":1319,"Ġ97":1320,"281":1321,"762":1322,"084":1323,"081":1324,"632":1325,"935":1326,"736":1327,"De":1328,"741":1329,"Ġ40000000000":1330,"955":1331,"085":1332,"094":1333,"ill":1334,"381":1335,"257":1336,"996":1337,"Ġ113":1338,"0275":1339,"636":1340,"Approval":1341,"911":1342,"Ġtotal":1343,"639":1344,"Ġ89":1345,"247":1346,"631":1347,"083":1348,"Ġ144":1349,"662":1350,"068":1351,"722":1352,"ser":1353,"054":1354,"000000000000000000000000000000000000000000000000000000000000001":1355,"213":1356,"992":1357,"Ġ107":1358,"727":1359,"380":1360,"931":1361,"182":1362,"385":1363,"ĠburnFrom":1364,"Ġ117":1365,"Ġ173":1366,"716":1367,"346":1368,"786":1369,"burnFrom":1370,"test":1371,"Allocation":1372,"od":1373,"nable":1374,"Ġ145":1375,"051":1376,"Ġ4000000000":1377,"ir":1378,"643":1379,"653":1380,"236":1381,"382":1382,"Ġ148":1383,"Ġadd":1384,"613":1385,"Ġdeposit":1386,"783":1387,"250":1388,"753":1389,"allet":1390,"igra":1391,"ON":1392,"912":1393,"012":1394,"945":1395,"642":1396,"ree":1397,"933":1398,"ApprovalForAll":1399,"043":1400,"026":1401,"682":1402,"212":1403,"Ġ79":1404,"183":1405,"8803":1406,"Ġ112":1407,"916":1408,"Ġ166":1409,"055":1410,"top":1411,"242":1412,"612":1413,"ord":1414,"Sale":1415,"729":1416,"Ġnonces":1417,"686":1418,"357":1419,"Ġ87":1420,"inali":1421,"646":1422,"617":1423,"Ġ158":1424,"cda":1425,"283":1426,"9382":1427,"520":1428,"743":1429,"941":1430,"ic":1431,"Ġ5000000000":1432,"1739":1433,"042":1434,"732":1435,"ive":1436,"va":1437,"xac":1438,"243":1439,"dbee":1440,"EN":1441,"767":1442,"abe":1443,"752":1444,"Ġ------":1445,"637":1446,"Ġ188":1447,"2751":1448,"952":1449,"383":1450,"032":1451,"585":1452,"232":1453,"abde":1454,"xded":1455,"759":1456,"xbaa":1457,"Operator":1458,"ProtocolFee":1459,"33700":1460,"cbafe":1461,"2979":1462,"286":1463,"280":1464,"fbf":1465,"Min":1466,"246":1467,"353":1468,"5984":1469,"Ġ155":1470,"Ġ150000":1471,"657":1472,"Ġ109":1473,"aster":1474,"917":1475,"2195995":1476,"007":1477,"237":1478,"987":1479,"ĠsafeTransferFrom":1480,"610":1481,"iod":1482,"Master":1483,"936":1484,"777":1485,"ead":1486,"Ġin":1487,"ApprovedForAll":1488,"757":1489,"262":1490,"013":1491,"930":1492,"Period":1493,"219":1494,"Count":1495,"145":1496,"claim":1497,"ulti":1498,"630":1499,"683":1500,"sale":1501,"652":1502,"xy":1503,"980":1504,"287":1505,"ot":1506,"932":1507,"Ġ143":1508,"647":1509,"Ġ70":1510,"daf":1511,"047":1512,"086":1513,"927":1514,"000001":1515,"Ġ167":1516,"Ġ119":1517,"946":1518,"937":1519,"White":1520,"pend":1521,"Ġ129":1522,"dator":1523,"Ġ153":1524,"ush":1525,"Ġ146":1526,"zed":1527,"027":1528,"760":1529,"020":1530,"Ġswap":1531,"747":1532,"lease":1533,"Fallback":1534,"Ġ60000000000":1535,"717":1536,"Ġ151":1537,"reation":1538,"667":1539,"Ġo":1540,"922":1541,"ByIndex":1542,"189":1543,"160":1544,"999":1545,"967":1546,"037":1547,"xdf":1548,"017":1549,"769":1550,"reeze":1551,"737":1552,"062":1553,"safeTransferFrom":1554,"956":1555,"Contract":1556,"957":1557,"Ġ172":1558,"387":1559,"Lock":1560,"239":1561,"982":1562,"0000000000000000000000000000000000000000000000000000000000000000000000000000000000000000000000000000000000000000":1563,"943":1564,"348":1565,"vail":1566,"vailable":1567,"Ġ1000000":1568,"188":1569,"Ġ162":1570,"053":1571,"354":1572,"052":1573,"aaa":1574,"Wallet":1575,"787":1576,"953":1577,"689":1578,"Ġ154":1579,"ound":1580,"Match":1581,"Ġm":1582,"056":1583,"Ġ80":1584,"942":1585,"687":1586,"730":1587,"1127":1588,"009":1589,"749":1590,"158":1591,"Ġfactory":1592,"087":1593,"586":1594,"Ġ142":1595,"ker":1596,"ates":1597,"ake":1598,"Ġ137":1599,"181":1600,"cul":1601,"Ġ184":1602,"Ġ147":1603,"067":1604,"040":1605,"184":1606,"xec":1607,"Ġ90":1608,"legates":1609,"TokenTransfer":1610,"779":1611,"069":1612,"fcfff":1613,"ut":1614,"226":1615,"060":1616,"Bu":1617,"128":1618,"019":1619,"xfe":1620,"343":1621,"155":1622,"030":1623,"Ġremove":1624,"Ġ350000":1625,"fee":1626,"118":1627,"355":1628,"Ġ120":1629,"780":1630,"remove":1631,"Ġ152":1632,"342":1633,"Reser":1634,"Ġ156":1635,"xab":1636,"230":1637,"[])":1638,"[])':":1639,"352":1640,"new":1641,"Ġ185":1642,"710":1643,"029":1644,"kerProtocolFee":1645,"358":1646,"Ġ176":1647,"750":1648,"740":1649,"Ġ25000000000":1650,"929":1651,"ie":1652,"920":1653,"649":1654,"Ġ181":1655,"403":1656,"049":1657,"640":1658,"669":1659,"939":1660,"789":1661,"111":1662,"Inf":1663,"050":1664,"770":1665,"Ġ183":1666,"960":1667,"gist":1668,"144":1669,"619":1670,"240":1671,"7741":1672,"0600":1673,"row":1674,"080":1675,"680":1676,"INI":1677,"336":1678,"eam":1679,"989":1680,"Team":1681,"345":1682,"289":1683,"alcul":1684,"333":1685,"344":1686,"Ġ10000000000000000":1687,"Auction":1688,"buy":1689,"alculate":1690,"ward":1691,"iti":1692,"Ġ201":1693,"202":1694,"20606":1695,"ity":1696,"com":1697,"aseURI":1698,"143":1699,"720":1700,"Ġ192":1701,"Controller":1702,"070":1703,"locked":1704,"efb":1705,"Add":1706,"910":1707,"Ġ204":1708,"ĠsupportsInterface":1709,"Co":1710,"ĠapproveAndCall":1711,"Ġun":1712,"approveAndCall":1713,"057":1714,"14854":1715,"fcb":1716,"nabled":1717,"Sig":1718,"Ġ110":1719,"260":1720,"950":1721,"326":1722,"xbf":1723,"090":1724,"919":1725,"visor":1726,"TO":1727,"873":1728,"Ġ100000000000000000":1729,"ĠacceptOwnership":1730,"supportsInterface":1731,"Start":1732,"36568":1733,"fddf":1734,"222":1735,"558":1736,"547741":1737,"554":1738,"Ġ177":1739,"660":1740,"Ġ300000":1741,"990":1742,"Di":1743,"Enabled":1744,"fae":1745,"Ġ-----":1746,"Ġ6000000000":1747,"079":1748,"Ġ140":1749,"949":1750,"istribu":1751,"Ġ139":1752,"ERC":1753,"Ġ159":1754,"100":1755,"xbc":1756,"Ġ198":1757,"000000000000000000000000000000000000000000000000000000000000002":1758,"Ġ130":1759,"Ġ187":1760,"deposit":1761,"341":1762,"650":1763,"Main":1764,"igration":1765,"Ġ199":1766,"940":1767,"151":1768,"089":1769,"Transfers":1770,"Ġ149":1771,"486":1772,"leaseA":1773,"Ġ186":1774,"sw":1775,"bcd":1776,"ddd":1777,"141":1778,"Ġclaim":1779,"9865":1780,"456":1781,"TIAL":1782,"INITIAL":1783,"0901":1784,"ebb":1785,"Ġ157":1786,"227":1787,"185":1788,"xchange":1789,"cap":1790,"267":1791,"Ġ244":1792,"rowd":1793,"408":1794,"546":1795,"356":1796,"331":1797,"Ġ558":1798,"order":1799,"Whitelist":1800,"959":1801,"dbb":1802,"tribu":1803,"Ġupgrade":1804,"154":1805,"Ġ182":1806,"DE":1807,"Ġ200":1808,"269":1809,"Ġ179":1810,"Ġ80000":1811,"Ġ120000":1812,"Ġ15000000000":1813,"mintingFinished":1814,"ĠmintingFinished":1815,"Ġ120000000000":1816,"Round":1817,"322":1818,"time":1819,"rac":1820,"347":1821,"858":1822,"312":1823,"313":1824,"amp":1825,"KEN":1826,"ace":1827,"167":1828,"Multi":1829,"ĠownerOf":1830,"stamp":1831,"End":1832,"ancel":1833,"With":1834,"485":1835,"Timestamp":1836,"0001":1837,"351":1838,"153":1839,"funding":1840,"Ġdelegate":1841,"9083":1842,"Reserves":1843,"319":1844,"0000000000000000000000000000000000000000000000000000000000000002":1845,"Ġ208":1846,"tokens":1847,"urrent":1848,"Ġsweep":1849,"Eth":1850,"ffffffffffffffffffffffffffffffff":1851,"Ġb":1852,"xff":1853,"Ġtokens":1854,"OfOwner":1855,"401":1856,"latest":1857,"152":1858,"116":1859,"Ġ205":1860,"0124":1861,"000000000000000000000000000000000000000000000000000000000":1862,"548":1863,"Ġ42000":1864,"Auth":1865,"start":1866,"316":1867,"has":1868,"Ġcon":1869,"220":1870,"Ġ170":1871,"ĠWETH":1872,"aaf":1873,"ui":1874,"Proxy":1875,"xce":1876,"Creation":1877,"Ġ150":1878,"555":1879,"0405":1880,"roze":1881,"156":1882,"ĠfinishMinting":1883,"finishMinting":1884,"rozen":1885,"Name":1886,"884":1887,"Ether":1888,"end":1889,"xcb":1890,"Ġ196":1891,"00000000000000000000000000000000000000000000000000000000000001":1892,"545":1893,"9650":1894,"vo":1895,"449":1896,"140":1897,"newOwner":1898,"119":1899,"059":1900,"ys":1901,"RE":1902,"fde":1903,"IC":1904,"146":1905,"xaa":1906,"186":1907,"ĠsetApprovalForAll":1908,"544":1909,"98650275":1910,"Ġ8000000000":1911,"448":1912,"sc":1913,"112":1914,"543":1915,"541":1916,"validate":1917,"Ġ203":1918,"9010":1919,"uth":1920,"ĠgetReserves":1921,"000000000000000000000000000000000000000000000000000000000000004":1922,"Ġ2500000000":1923,"Ġ300000000":1924,"Ġ1000000000000":1925,"Ġ169":1926,"584":1927,"Ġ465":1928,"eeeeeeeeeeeeeeee":1929,"445":1930,"Ġstart":1931,"xbd":1932,"147":1933,"76000":1934,"362":1935,"Ġ160":1936,"freeze":1937,"racle":1938,"ata":1939,"Ġ22000000000":1940,"sweep":1941,"320":1942,"588":1943,"337":1944,"441":1945,"Ġcreate":1946,"484":1947,"3140":1948,"Ġ256":1949,"Vali":1950,"Ġ100000000000":1951,"229":1952,"comm":1953,"fund":1954,"delegate":1955,"Ġ189":1956,"Ġ225":1957,"482":1958,"TION":1959,"cef":1960,"113":1961,"ip":1962,"eve":1963,"444":1964,"451":1965,"3995":1966,"inalized":1967,"49404":1968,"187":1969,"888":1970,"4659":1971,"12210":1972,"Ġmax":1973,"cent":1974,"AP":1975,"Deposit":1976,"481":1977,"340":1978,"279":1979,"Ġ221":1980,"leaseAgent":1981,"cess":1982,"8038":1983,"483":1984,"update":1985,"ient":1986,"571":1987,"Ġ190":1988,"ipient":1989,"State":1990,"549":1991,"ption":1992,"200":1993,"Ġ210000":1994,"472":1995,"Info":1996,"Trading":1997,"180":1998,"ece":1999,"old":2000,"Ġ224":2001,"kill":2002,"327":2003,"latestRound":2004,"157":2005,"8205":2006,"000001459":2007,"413":2008,"ry":2009,"dac":2010,"581":2011,"Rew":2012,"Ġ231":2013,"Pre":2014,"142":2015,"Ġfee":2016,"721":2017,"create":2018,"Addr":2019,"xcf":2020,"Rec":2021,"Ġ234":2022,"cti":2023,"team":2024,"Recipient":2025,"924":2026,"Reward":2027,"553":2028,"cca":2029,"ceive":2030,"91393":2031,"Cap":2032,"547":2033,"Ġ233":2034,"578":2035,"00000000000000000000000000000000000000000000000000000000000":2036,"Access":2037,"ute":2038,"583":2039,"5391393":2040,"Ġ420000":2041,"Ġpro":2042,"452":2043,"out":2044,"Ġ461":2045,"scri":2046,"360":2047,"ana":2048,"onTokenTransfer":2049,"270":2050,"0505":2051,"Ġ223":2052,"Total":2053,"310":2054,"367":2055,"scription":2056,"Ġ50000000000000000":2057,"Ġ235":2058,"Can":2059,"unity":2060,"330":2061,"Cl":2062,"ĠisApprovedForAll":2063,"972":2064,"caf":2065,"voke":2066,"setApprovalForAll":2067,"isApprovedForAll":2068,"BaseURI":2069,"2903":2070,"551":2071,"ebe":2072,"Ġ24000000000":2073,"679":2074,"Ġ51000000000":2075,"339":2076,"Ġmin":2077,"453":2078,"9804":2079,"Ġ180":2080,"Da":2081,"inalize":2082,"Ġw":2083,"Ġ218":2084,"756983":2085,"169":2086,"baf":2087,"1694":2088,"xfeaf":2089,"Fill":2090,"455":2091,"000000000000000000000000000000000000000000000000000":2092,"Ġ228":2093,"Locked":2094,"ownerOf":2095,"372":2096,"150":2097,"pending":2098,"Validator":2099,"vestor":2100,"ccb":2101,"Ġ238":2102,"Ġ197":2103,"xbb":2104,"526":2105,"ori":2106,"00000000000000000000000000000000000000000000000000":2107,"ft":2108,"xecute":2109,"162":2110,"831":2111,"117":2112,"Ke":2113,"Ġ206":2114,"193":2115,"Ġ288":2116,"539":2117,"validator":2118,"542":2119,"itiali":2120,"ĠtokenFallback":2121,"bab":2122,"ĠisOwner":2123,"5268":2124,"tokenFallback":2125,"isOwner":2126,"IT":2127,"350":2128,"317":2129,"607":2130,"0000000000000000000000000000000000000000000000000000000000":2131,"OfOwnerByIndex":2132,"Sh":2133,"Ġ215":2134,"137":2135,"Ġ202":2136,"pu":2137,"cae":2138,"es":2139,"602":2140,"840":2141,"000000000000000000000000000000000000000000000000000000000000006":2142,"903":2143,"442":2144,"Keys":2145,"qui":2146,"ast":2147,"921":2148,"xae":2149,"887":2150,"tokenURI":2151,"ĠtokenURI":2152,"disable":2153,"523":2154,"Agents":2155,"Ġ214":2156,"TOKEN":2157,"Allocated":2158,"faa":2159,"Ġ12000000000":2160,"ĠgetApproved":2161,"0464":2162,"110":2163,"getApproved":2164,"825":2165,"843":2166,"Ġ248":2167,"Ġ400000000000":2168,"ence":2169,"Ġ488":2170,"670":2171,"Finalized":2172,"pen":2173,"852":2174,"540":2175,"rage":2176,"457":2177,"149":2178,"torage":2179,"Un":2180,"00000000000000000000000000000000000000000000000000000000000000001":2181,"349":2182,"Minimum":2183,"ting":2184,"Trade":2185,"Ta":2186,"Ġ261":2187,"582":2188,"Ġ35000000000":2189,"7714":2190,"visers":2191,"Ġ275":2192,"74500":2193,"000000000000000000000000000000000000000000000000000000000000008":2194,"161":2195,"359":2196,"last":2197,"6288":2198,"369":2199,"gistry":2200,"bde":2201,"624":2202,"00160":2203,"3969":2204,"Exchange":2205,"6521":2206,"pender":2207,"Migration":2208,"ased":2209,"412":2210,"hash":2211,"500":2212,"58609":2213,"fcd":2214,"Minted":2215,"6101":2216,"329":2217,"draft":2218,"verdraft":2219,"Ġ301":2220,"mentAmount":2221,"57970":2222,"838":2223,"40317":2224,"40884":2225,"sEnabled":2226,"timeout":2227,"CE":2228,"jin":2229,"jinTeam":2230,"9374500":2231,"vailableFunds":2232,"racleCount":2233,"628806":2234,"TE":2235,"chi":2236,"gen":2237,"ger":2238,"ped":2239,"417":2240,"Ġpull":2241,"Ġ1000":2242,"0000000000000000000000000000000000000000000000000000":2243,"rant":2244,"stop":2245,"Ġstop":2246,"anda":2247,"pull":2248,"andard":2249,"060020":2250,"tribute":2251,"Ġ501":2252,"Ġ211":2253,"lush":2254,"delegates":2255,"Ġdelegates":2256,"813":2257,"rop":2258,"1694505":2259,"Ġ1000000000000000000":2260,"dff":2261,"Ġ691":2262,"Set":2263,"Ġ315":2264,"5755":2265,"rowdsale":2266,"552":2267,"556":2268,"Ġ485":2269,"819":2270,"Upgraded":2271,"443":2272,"446":2273,"leased":2274,"UpgradeMaster":2275,"id":2276,"Ġsafe":2277,"Dict":2278,"black":2279,"860":2280,"xba":2281,"UpgradeAgent":2282,"68764":2283,"imit":2284,"587":2285,"ancelOrder":2286,"MakerProtocolFee":2287,"validateOrder":2288,"CanMatch":2289,"TakerProtocolFee":2290,"Ġ213":2291,"Ġ243":2292,"storage":2293,"({'":2294,"})":2295,"Attribute":2296,"storageKeys":2297,"AttributeDict":2298,"Ġ207":2299,"UpgradeState":2300,"5268389":2301,"Grant":2302,"130":2303,"Ġ[":2304,"no":2305,"883":2306,"973":2307,"517":2308,"575529":2309,"238":2310,"Ġ105000":2311,"IM":2312,"537":2313,"Ġ264":2314,"373":2315,"trade":2316,"bbe":2317,"099":2318,"ddb":2319,"distribu":2320,"Ġ241":2321,"safe":2322,"faf":2323,"Ġ268":2324,"acb":2325,"Limit":2326,"194":2327,"Ġcalculate":2328,"que":2329,"Ġdestroy":2330,"xdb":2331,"828":2332,"fir":2333,"Ġ70000":2334,"ddc":2335,"FundDeposit":2336,"Ġ245":2337,"bce":2338,"yERC":2339,"addMinter":2340,"ĠaddMinter":2341,"565":2342,"5023":2343,"315":2344,"Ġbuy":2345,"destroy":2346,"Burn":2347,"851":2348,"fcc":2349,"xee":2350,"Receive":2351,"mer":2352,"Ġ500000000":2353,"orders":2354,"Ġ273":2355,"wap":2356,"6100":2357,"487":2358,"ĠsetOwner":2359,"ub":2360,"021":2361,"0156":2362,"advisers":2363,"ATE":2364,"community":2365,"BA":2366,"setOwner":2367,"dab":2368,"438":2369,"139":2370,"00000000000000000000000000000000000000000000000":2371,"Ġ200000000000":2372,"SE":2373,"calculate":2374,"fbb":2375,"ex":2376,"3068":2377,"414":2378,"Ġ333":2379,"Ġ11000000000":2380,"Ġ226":2381,"0000000000000000000000000000000000000000000000":2382,"Ġ222":2383,"RES":2384,"805":2385,"885":2386,"550":2387,"ffd":2388,"LO":2389,"Ġ305":2390,"enable":2391,"Ġ216":2392,"Ġ274":2393,"Multiple":2394,"589":2395,"Ġ212":2396,"Ġ263":2397,"159":2398,"lect":2399,"7823":2400,"Leve":2401,"3318":2402,"Level":2403,"Ġ299":2404,"Ġ217":2405,"Ġ7000000000":2406,"560":2407,"421":2408,"fdc":2409,"Ġ265":2410,"Date":2411,"Current":2412,"460":2413,"Ġ291":2414,"882":2415,"Ġ209":2416,"CON":2417,"849":2418,"1526":2419,"anager":2420,"BU":2421,"2300":2422,"881":2423,"Orders":2424,"Withdraw":2425,"WithRe":2426,"Day":2427,"404":2428,"557":2429,"xea":2430,"vern":2431,"govern":2432,"eda":2433,"580":2434,"nap":2435,"447":2436,"dbd":2437,"bec":2438,"440":2439,"Ġenable":2440,"335":2441,"VER":2442,"Ġ463":2443,"437":2444,"Ġ200000000000000000":2445,"itialize":2446,"ffe":2447,"che":2448,"gister":2449,"Ġ40000":2450,"cab":2451,"Ġ28000000000":2452,"fec":2453,"aee":2454,"203":2455,"ference":2456,"Ġ293":2457,"Ġ41000000000":2458,"195":2459,"changeFee":2460,"ĠchangeFee":2461,"600":2462,"876":2463,"WithReference":2464,"847":2465,"7600080":2466,"599":2467,"visors":2468,"Ġlock":2469,"CI":2470,"fac":2471,"fcbaf":2472,"900":2473,"Ġ423":2474,"ĠtransferAndCall":2475,"cac":2476,"808":2477,"Ġ255":2478,"MAL":2479,"DECI":2480,"DECIMAL":2481,"Fa":2482,"Ġrelease":2483,"491":2484,"Ġ232":2485,"00000000000000000000000000000000000000000000":2486,"Max":2487,"sAddr":2488,"2000000000000000000000000":2489,"bed":2490,"663":2491,"fbc":2492,"fdb":2493,"release":2494,"695":2495,"Ġ304":2496,"904":2497,"ĠINITIAL":2498,"ĠisMinter":2499,"Take":2500,"isMinter":2501,"anUpgrade":2502,"Ġ294":2503,"Make":2504,"ecb":2505,"arget":2506,"ffc":2507,"Reb":2508,"Rebate":2509,"Ġ271":2510,"aed":2511,"LevelsAddr":2512,"Ġ375":2513,"Se":2514,"xed":2515,"xcd":2516,"0000000000000000000000000000000000000000000000000000000000000004":2517,"Ġorder":2518,"Ġ45000000000":2519,"2521":2520,"ctive":2521,"25801":2522,"xcab":2523,"bee":2524,"Ġ464":2525,"transferAndCall":2526,"xfc":2527,"846":2528,"mit":2529,"Ġ773":2530,"Ġ251":2531,"834":2532,"761":2533,"ccd":2534,"81346":2535,"6000526":2536,"Ġ227":2537,"Is":2538,"Ġ295":2539,"858183":2540,"42712":2541,"Ġ318":2542,"fdeed":2543,"Ġ236":2544,"49616":2545,"Ġ298":2546,"cdc":2547,"feb":2548,"afb":2549,"886":2550,"Ġ9000000000":2551,"00000000000000000000000000":2552,"000000000000000000000000000000000000000000000000000000":2553,"480":2554,"xdee":2555,"eca":2556,"173":2557,"acti":2558,"704":2559,"fdf":2560,"cfb":2561,"3214":2562,"dca":2563,"Ġ303":2564,"Ġ242":2565,"xefdeed":2566,"Ġ495":2567,"Ġ456521":2568,"Ġ500":2569,"Distribu":2570,"585733":2571,"856":2572,"49616997":2573,"Ar":2574,"Ġ278":2575,"0002":2576,"ly":2577,"0000000000000000000000000000000000000000000000000000000000000":2578,"cfc":2579,"0000000000000000000000000000000000000000000000000000000000000003":2580,"ffa":2581,"857":2582,"265":2583,"601":2584,"492":2585,"510":2586,"136":2587,"604":2588,"Ġ20000000000000000":2589,"eab":2590,"Ġ258":2591,"ICAP":2592,"Buy":2593,"ne":2594,"ST":2595,"Ty":2596,"Ġ308":2597,"Type":2598,"723":2599,"168":2600,"ĠAttributeDict":2601,"6668":2602,"}),":2603,"Ġ247":2604,"559":2605,"Ġ414":2606,"0801":2607,"xde":2608,"Ġcap":2609,"Ġ435":2610,"eed":2611,"3838":2612,"aab":2613,"Ġfreeze":2614,"lo":2615,"699":2616,"Ġ18000000000":2617,"Ġ['":2618,"fbe":2619,"Ġfunding":2620,"Ġ52000000000":2621,"']":2622,"xdd":2623,"Ġexecute":2624,"ToICAP":2625,"Ġ252":2626,"centi":2627,"parent":2628,"Ġparent":2629,"4946":2630,"301":2631,"Ġ237":2632,"Ġ328":2633,"489":2634,"101":2635,"6624":2636,"665":2637,"blacklist":2638,"221":2639,"Active":2640,"835":2641,"mation":2642,"853":2643,"listed":2644,"074":2645,"3318585733":2646,"0436":2647,"ada":2648,"ird":2649,"271":2650,"Ġ368":2651,"keting":2652,"adc":2653,"419":2654,"800":2655,"gth":2656,"bcc":2657,"519":2658,"dba":2659,"7571":2660,"Ġ--------":2661,"0791":2662,"99999999":2663,"plit":2664,"Ġ335":2665,"Authority":2666,"Len":2667,"Ġ411":2668,"fab":2669,"SI":2670,"Ġ253":2671,"Ġ229":2672,"Ġ246":2673,"irdrop":2674,"minate":2675,"Ġ266":2676,"Ġ499":2677,"vestors":2678,"015600":2679,"uthority":2680,"centivis":2681,"817":2682,"199":2683,"ĠnewOwner":2684,"Ġ239":2685,"564":2686,"Ġ374":2687,"Length":2688,"cfe":2689,"450":2690,"bcb":2691,"410":2692,"Ġ30000":2693,"Factory":2694,"Fills":2695,"Ġ26000000000":2696,"0000000000000000000000000000000000000000000000000000000":2697,"430":2698,"ffb":2699,"nominate":2700,"Ġ55000000000":2701,"Ġ399":2702,"deb":2703,"FundAddress":2704,"6000526015600":2705,"dce":2706,"751039":2707,"LIM":2708,"dcb":2709,"LIMIT":2710,"818":2711,"Ġ33000000000":2712,"Ġ13000000000":2713,"aeb":2714,"vate":2715,"Sign":2716,"394":2717,"961":2718,"115":2719,"PRI":2720,"0498":2721,"842":2722,"fba":2723,"Ġ16000000000":2724,"bac":2725,"Ġ314":2726,"Ġ324":2727,"StartBlock":2728,"6399":2729,"AllocatedTo":2730,"njinTeam":2731,"centivisation":2732,"071":2733,"bef":2734,"dde":2735,"RA":2736,"9945":2737,"Ġ254":2738,"Transaction":2739,"bfd":2740,"Ġ90000000000":2741,"fed":2742,"tu":2743,"inal":2744,"Ġ27000000000":2745,"923":2746,"ĠlatestRound":2747,"EndBlock":2748,"eac":2749,"Ġ345":2750,"genc":2751,"grant":2752,"mergenc":2753,"595":2754,"turn":2755,"aec":2756,"PRICE":2757,"aac":2758,"tokenCreation":2759,"ĠtokenCreation":2760,"beb":2761,"7276":2762,"Ġupdate":2763,"0000000000000000000000000000000000000000000000000000000000000000000000000000000000000000000000000000000000000000000000000000000000000000000000000000000000000000000000000000000000000000000000000000000000000000000000000000000000000000000000000000000000000000":2764,"6374":2765,"378":2766,"bfa":2767,"Ġ279":2768,"Ġ219":2769,"124":2770,"Ġ14000000000":2771,"569":2772,"01561":2773,"799":2774,"178":2775,"Ġ500000000000000000":2776,"104":2777,"def":2778,"Ġ695":2779,"xeb":2780,"Ġ220":2781,"uthori":2782,"pendingOwner":2783,"nector":2784,"Ġ471":2785,"Ġ210":2786,"7274":2787,"Ġ391":2788,"cover":2789,"quest":2790,"Ġ321":2791,"0200":2792,"Ġ338":2793,"On":2794,"Ġ23000000000":2795,"469":2796,"cea":2797,"Ran":2798,"bda":2799,"ReleaseAgent":2800,"2461":2801,"TransferAgent":2802,"aea":2803,"ters":2804,"yer":2805,"363":2806,"Ġ468":2807,"adb":2808,"Ġ32000000000":2809,"withdrawFunds":2810,"ĠwithdrawFunds":2811,"894":2812,"889":2813,"Ġ331":2814,"Ġ36000000000":2815,"Ġ925":2816,"rozenAccount":2817,"Or":2818,"Ġ348":2819,"edf":2820,"Ġpush":2821,"vested":2822,"121":2823,"Ġ421":2824,"7305":2825,"Ġ378":2826,"Ġ300":2827,"UN":2828,"750000000000000":2829,"000000000000000000000000000000000000000000000000000000000000000000000000000000000000000000000000":2830,"125":2831,"gener":2832,"Ġ334":2833,"092":2834,"474":2835,"aba":2836,"dfd":2837,"transferAdmin":2838,"ĠtransferAdmin":2839,"abb":2840,"Ġ262":2841,"quire":2842,"708":2843,"3606":2844,"cbb":2845,"pay":2846,"060405":2847,"Ġ364":2848,"Ġ344":2849,"Claim":2850,"push":2851,"Ġ491":2852,"Ġ504":2853,"Ġ395":2854,"338":2855,"Allowed":2856,"Received":2857,"693":2858,"Ġ80000000000":2859,"aae":2860,"Exa":2861,"DEL":2862,"Exact":2863,"tom":2864,"ormation":2865,"Ġ84000":2866,"bbb":2867,"Ġ1052":2868,"502":2869,"668":2870,"cad":2871,"Information":2872,"New":2873,"Ġ31000000000":2874,"cdd":2875,"bdc":2876,"Ġ405":2877,"295":2878,"974":2879,"ĠonTokenTransfer":2880,"ExchangeRate":2881,"ecf":2882,"098":2883,"323":2884,"728":2885,"814":2886,"xfd":2887,"ToWhitelist":2888,"cbf":2889,"firm":2890,"075":2891,"DA":2892,"Ġ486":2893,"Version":2894,"Ġteam":2895,"Ġ475":2896,"298":2897,"Frozen":2898,"Ġ365":2899,"Ġ249":2900,"ici":2901,"itial":2902,"aef":2903,"edd":2904,"844":2905,"dfc":2906,"773":2907,"Bet":2908,"fda":2909,"095":2910,"Ġ325":2911,"Ġ494":2912,"tomic":2913,"py":2914,"tomicMatch":2915,"778":2916,"eff":2917,"Copy":2918,"dbc":2919,"batch":2920,"Ġ521":2921,"Ġ272":2922,"eae":2923,"Release":2924,"598":2925,"134":2926,"testCopy":2927,"Ġ599":2928,"CONT":2929,"7778":2930,"hitelist":2931,"Ġkill":2932,"2878":2933,"815":2934,"2198":2935,"Ġfinalize":2936,"Manager":2937,"Snap":2938,"vert":2939,"Ġ323":2940,"Ġ361":2941,"afd":2942,"Ġ94813":2943,"361":2944,"TokenInformation":2945,"are":2946,"Ġ285":2947,"1713":2948,"ceb":2949,"generate":2950,"Ġ408":2951,"ĠTO":2952,"CurrentPrice":2953,"803":2954,"AD":2955,"102":2956,"738":2957,"Ġma":2958,"ade":2959,"Ġ30000000000000000":2960,"061":2961,"ore":2962,"114":2963,"250000000000000":2964,"ĠgetTimestamp":2965,"703":2966,"Ġ355":2967,"Ġ415":2968,"Ġ394":2969,"0000000005":2970,"608":2971,"An":2972,"Ġ358":2973,"TAL":2974,"for":2975,"573":2976,"bdd":2977,"controller":2978,"ancell":2979,"eaec":2980,"725":2981,"dbf":2982,"ode":2983,"reationBlock":2984,"ME":2985,"328":2986,"318":2987,"794":2988,"getTimestamp":2989,"Sub":2990,"Ġ269":2991,"Ġ462":2992,"description":2993,"fbd":2994,"Ġ292":2995,"Ġdescription":2996,"Signer":2997,"Ġcontroller":2998,"efe":2999,"Ġ363":3000,"975":3001,"place":3002,"xda":3003,"dcd":3004,"501":3005,"Ġ230":3006,"2173":3007,"197":3008,"Ġ373":3009,"Ġ42000000000":3010,"Ġh":3011,"208":3012,"250000000":3013,"ĠremoveAccess":3014,"removeAccess":3015,"Ġt":3016,"Ġ311":3017,"0003":3018,"bcf":3019,"generateTokens":3020,"AnyERC":3021,"880":3022,"afa":3023,"ĠsetBaseURI":3024,"Ġ478":3025,"2206":3026,"setBaseURI":3027,"Ġ276":3028,"dbe":3029,"928":3030,"cbe":3031,"Ġrevoke":3032,"105":3033,"678":3034,"hase":3035,"627":3036,"revoke":3037,"390":3038,"UM":3039,"account":3040,"ICO":3041,"Presale":3042,"0000000000000000000000000000000000000000000000000000000000000000000000000000000000000000000000000000000000000000000000000000":3043,"daa":3044,"CO":3045,"Ġ418":3046,"57894":3047,"078":3048,"228":3049,"Ġ393":3050,"eee":3051,"7464":3052,"Ġ50000000":3053,"Ġvalidator":3054,"638":3055,"ebd":3056,"871":3057,"Ġ428":3058,"675":3059,"724":3060,"0565":3061,"Ġ70000000000":3062,"abc":3063,"191":3064,"771":3065,"308":3066,"428":3067,"Ġ302":3068,"091":3069,"Ġ267":3070,"fcf":3071,"224":3072,"user":3073,"439":3074,"Ġ150000000000":3075,"435":3076,"Ġ240":3077,"xcc":3078,"ancelled":3079,"0000000000000000000000000000000000000000000000000000000000000008":3080,"Ġ63000":3081,"do":3082,"finalize":3083,"878":3084,"cee":3085,"498":3086,"0000000000000000000000000000000000000000000000000000000000000000000000000000000000000000":3087,"698":3088,"2424":3089,"1489":3090,"6300":3091,"Final":3092,"governance":3093,"fad":3094,"iring":3095,"3446":3096,"ĠtokenOfOwnerByIndex":3097,"eeb":3098,"ecd":3099,"906":3100,"sh":3101,"Return":3102,"073":3103,"ebc":3104,"tokenOfOwnerByIndex":3105,"']}),":3106,"eth":3107,"174":3108,"ume":3109,"6218":3110,"vity":3111,"ray":3112,"Ġ53000":3113,"setValidator":3114,"ĠsetValidator":3115,"aff":3116,"ede":3117,"Ġ277":3118,"Ġ19000000000":3119,"Ġ297":3120,"cbd":3121,"eea":3122,"Ġ515":3123,"368":3124,"cff":3125,"ffffffffffffffffffffffffffffffffffffffff":3126,"PO":3127,"ĠswapExact":3128,"CAP":3129,"activity":3130,"Crowdsale":3131,"Ġsell":3132,"434":3133,"Ġ412":3134,"6600":3135,"tokenByIndex":3136,"ĠtokenByIndex":3137,"Ġ398":3138,"530":3139,"ReleasePeriod":3140,"activityReleasePeriod":3141,"399":3142,"Shot":3143,"495":3144,"694":3145,"Ġdisable":3146,"264":3147,"SnapShot":3148,"SnapShotBlock":3149,"Ġ401":3150,"750000000":3151,"minimum":3152,"925":3153,"Clone":3154,"706":3155,"7777":3156,"nti":3157,"Array":3158,"CloneToken":3159,"303":3160,"291":3161,"273":3162,"bdf":3163,"cfa":3164,"Ġ500000000000":3165,"971":3166,"ultis":3167,"Ġ444":3168,"294":3169,"Ġ493":3170,"9565":3171,"793":3172,"fea":3173,"674":3174,"696":3175,"591":3176,"504":3177,"ALL":3178,"Ġ281":3179,"3848":3180,"Paused":3181,"Ġ400000":3182,"meters":3183,"978":3184,"reward":3185,"893":3186,"Ġ600000":3187,"Ġ284":3188,"ext":3189,"Ġ354":3190,"ĠremoveMinter":3191,"removeMinter":3192,"Ġ448":3193,"Parameters":3194,"Ġmove":3195,"810":3196,"bbd":3197,"Im":3198,"ĠmintTokens":3199,"ies":3200,"0795":3201,"dcf":3202,"374":3203,"mintTokens":3204,"OL":3205,"Ġ371":3206,"86991":3207,"cde":3208,"499":3209,"575":3210,"dfb":3211,"iff":3212,"ddf":3213,"Ġ534":3214,"45605":3215,"304":3216,"efa":3217,"acc":3218,"364":3219,"0246668":3220,"0805":3221,"705":3222,"568":3223,"fca":3224,"abd":3225,"Ġ416":3226,"cbc":3227,"6347":3228,"859":3229,"103":3230,"872":3231,"acd":3232,"9000000000000000000000000":3233,"bad":3234,"oldTokens":3235,"561":3236,"tocolFeeRecipient":3237,"097":3238,"ProxyOwnership":3239,"824":3240,"Offer":3241,"9071":3242,"DECIMALS":3243,"798":3244,"rice":3245,"300":3246,"225":3247,"Ġsale":3248,"Periods":3249,"Ġminimum":3250,"514":3251,"Ġflush":3252,"275":3253,"ccf":3254,"848":3255,"gu":3256,"0000000001":3257,"375":3258,"701":3259,"454":3260,"603":3261,"Ġ403":3262,"claimToken":3263,"801":3264,"Ġ425":3265,"898":3266,"Ġ528":3267,"caba":3268,"Com":3269,"ced":3270,"Ġ487":3271,"Ġ604":3272,"Ġ29000000000":3273,"Ġtrade":3274,"ebf":3275,"eef":3276,"Ġ723":3277,"165":3278,"Ġ-------":3279,"508":3280,"EG":3281,"Cliff":3282,"Unvested":3283,"Ġchi":3284,"PeriodAmount":3285,"850":3286,"Ro":3287,"PeriodLength":3288,"PeriodsNumber":3289,"449022":3290,"ico":3291,"cba":3292,"0000000000000000000000000000000":3293,"bbc":3294,"dcc":3295,"ĠcancelOrder":3296,"201":3297,"CALL":3298,"spender":3299,"Ġhash":3300,"Ġpre":3301,"Ġspender":3302,"ATECALL":3303,"DELEG":3304,"DELEGATECALL":3305,"415":3306,"ccc":3307,"902":3308,"841":3309,"abf":3310,"Ġ466":3311,"acf":3312,"ĠpaymentAmount":3313,"paymentAmount":3314,"BalanceOf":3315,"Ġtimeout":3316,"854":3317,"availableFunds":3318,"oracleCount":3319,"ĠavailableFunds":3320,"ĠoracleCount":3321,"data":3322,"Ġ220436":3323,"175":3324,"400":3325,"465":3326,"907":3327,"Ġ728":3328,"baa":3329,"Stop":3330,"475":3331,"bfe":3332,"371":3333,"06000":3334,"664":3335,"Ġ17000000000":3336,"538":3337,"261":3338,"000000000000000000000000000000000000000000000000000000000000000000000000000000000000000000000000000000000000000000000000000000":3339,"Contribu":3340,"108":3341,"775":3342,"efd":3343,"igrate":3344,"464":3345,"966":3346,"Ġ296":3347,"164":3348,"334":3349,"standard":3350,"Ġstandard":3351,"16124":3352,"Root":3353,"Ġ498":3354,"Ġ605":3355,"628":3356,"661":3357,"804":3358,"963":3359,"391":3360,"Ġ404":3361,"462":3362,"MultiSig":3363,"arded":3364,"9091":3365,"Ġ1256":3366,"Ġ432":3367,"Ġ778":3368,"299":3369,"377":3370,"861":3371,"bea":3372,"Ġ535":3373,"dae":3374,"9291":3375,"488":3376,"Ġ505":3377,"totalUpgraded":3378,"ĠtotalUpgraded":3379,"321":3380,"534":3381,"cdb":3382,"471":3383,"LOC":3384,"Ġ424":3385,"621":3386,"325":3387,"Ġ438":3388,"upgradeMaster":3389,"Ġ35000":3390,"ĠupgradeMaster":3391,"SIS":3392,"TransferProxy":3393,"ary":3394,"reed":3395,"send":3396,"fbee":3397,"Ġ322":3398,"Ġ433":3399,"Ġ260":3400,"allow":3401,"Ġ316":3402,"POINT":3403,"Send":3404,"ProtocolFeeRecipient":3405,"setUpgradeMaster":3406,"upgradeAgent":3407,"ĠsetUpgradeMaster":3408,"ĠupgradeAgent":3409,"190":3410,"changeMinimum":3411,"ĠchangeMinimum":3412,"Calldata":3413,"xchangeToken":3414,"dOrders":3415,"ĠvalidateOrder":3416,"ToSign":3417,"codename":3418,"atic":3419,"INVER":3420,"Replace":3421,"MatchPrice":3422,"ordersCanMatch":3423,"BASIS":3424,"OrFinalized":3425,"ancelledOrFinalized":3426,"FinalPrice":3427,"ArrayReplace":3428,"guarded":3429,"CalldataCanMatch":3430,"aticCall":3431,"INVERSE":3432,"guardedArrayReplace":3433,"bca":3434,"setUpgradeAgent":3435,"ĠsetUpgradeAgent":3436,"Ġeth":3437,"Ġ332":3438,"Ġ508":3439,"afc":3440,"Implementation":3441,"aad":3442,"Ġstake":3443,"293":3444,"855":3445,"getUpgradeState":3446,"ĠgetUpgradeState":3447,"claimTokens":3448,"flush":3449,"Ġ525":3450,"uthorize":3451,"Ġ351":3452,"Ġn":3453,"Ġ1375":3454,"025":3455,"Whitelisted":3456,"423":3457,"Pl":3458,"dfa":3459,"Ġ5000000000000000":3460,"Ġreward":3461,"268":3462,"524":3463,"Ġ591":3464,"Ġ474":3465,"832":3466,"Phase":3467,"Ġ454":3468,"rease":3469,"Ġ396":3470,"Ġ4662":3471,"efici":3472,"eficiary":3473,"198":3474,"496":3475,"Uns":3476,"09010":3477,"Ġ25200":3478,"Ġ66000000000":3479,"main":3480,"138":3481,"Swap":3482,"964":3483,"dda":3484,"xyOwner":3485,"xef":3486,"Reserve":3487,"Ġ352":3488,"Ġ400":3489,"9994":3490,"bbf":3491,"sell":3492,"Ġdistribu":3493,"0136":3494,"802":3495,"395":3496,"Ġ518":3497,"533":3498,"Ġminter":3499,"562":3500,"ollect":3501,"minter":3502,"PerEth":3503,"Ġ434":3504,"797":3505,"892":3506,"Ġmulti":3507,"204":3508,"bff":3509,"Ġ54000000000":3510,"170":3511,"fault":3512,"eba":3513,"Ġ559":3514,"Ġ458":3515,"5158":3516,"9414":3517,"Ġrefund":3518,"4793":3519,"age":3520,"Ġ341":3521,"Transferable":3522,"eec":3523,"Ġ450":3524,"776":3525,"Ġ561":3526,"0346":3527,"869":3528,"96000":3529,"Ġ17632":3530,"cdf":3531,"61000":3532,"fce":3533,"cancelOrder":3534,"765":3535,"dfe":3536,"stopped":3537,"Ġstopped":3538,"Ġ306":3539,"0000000000000000000000004":3540,"Ġ544":3541,"521":3542,"Ġ307":3543,"Balances":3544,"Ġoperator":3545,"Fees":3546,"Ġ34000000000":3547,"727823":3548,"065":3549,"9965":3550,"6624727823":3551,"Ġ4662729":3552,"Ġ176326624727823":3553,"Ġ176326624727823352":3554,"822":3555,"di":3556,"Ġ326":3557,"operator":3558,"691":3559,"833":3560,"Ġ44000000000":3561,"064":3562,"7865":3563,"cce":3564,"Ġlocked":3565,"transfersEnabled":3566,"ĠtransfersEnabled":3567,"274":3568,"865":3569,"209":3570,"ecc":3571,"62496":3572,"899":3573,"Ġ431":3574,"9535":3575,"dea":3576,"Mul":3577,"Ġ353":3578,"bae":3579,"fef":3580,"refund":3581,"Ġend":3582,"Ġadvisers":3583,"994597":3584,"823":3585,"Ġ313":3586,"ura":3587,"206994597":3588,"ĠTOKEN":3589,"2206206994597":3590,"Ġcommunity":3591,"023":3592,"ĠclaimTokens":3593,"470":3594,"594":3595,"bba":3596,"aca":3597,"Ġ1400000000":3598,"Ġ270":3599,"Percent":3600,"Ġunlock":3601,"176":3602,"Ġlast":3603,"418":3604,"efc":3605,"0303":3606,"onus":3607,"caa":3608,"266":3609,"908194":3610,"Share":3611,"Ġ514":3612,"eaf":3613,"Ġ65000":3614,"Ġ48000000000":3615,"Ġ563":3616,"Forward":3617,"6813838":3618,"Ġ45652147":3619,"Ġ10526813838":3620,"9081943446":3621,"Ġ105268138389081943446":3622,"263":3623,"emit":3624,"rketing":3625,"bfb":3626,"unlock":3627,"Ġ445":3628,"xbe":3629,"473":3630,"00000000000000000000000000000000000000000000000000000000000000010000000000000000000000000000000000000000000000000000000000000001":3631,"TOTAL":3632,"bat":3633,"overdraft":3634,"6102":3635,"Ġoverdraft":3636,"Ġbat":3637,"bfc":3638,"edc":3639,"Operators":3640,"nu":3641,"405":3642,"Forwarder":3643,"574":3644,"Siring":3645,"Ġ336":3646,"1882":3647,"0604":3648,"890":3649,"tri":3650,"7895":3651,"425":3652,"004745":3653,"567":3654,"28261":3655,"00001":3656,"xbbc":3657,"Mode":3658,"6363":3659,"Ġ940000":3660,"Ġ484":3661,"2458":3662,"Ġ455":3663,"393":3664,"Ġ312":3665,"458":3666,"7316":3667,"077":3668,"iswap":3669,"566":3670,"Advisors":3671,"Ġavailable":3672,"468":3673,"875":3674,"493":3675,"6611":3676,"Ġ337":3677,"000000000000000000000000000000000000000000000000000000000000006000000000000000000000000000000000000000000000000000000000000000":3678,"671":3679,"Conversion":3680,"Ġ565":3681,"Ġ65000000000":3682,"Timelocked":3683,"306":3684,"setMinter":3685,"ĠsetMinter":3686,"Met":3687,"7268":3688,"RESS":3689,"Ġ38000000000":3690,"Ġ290":3691,"ADD":3692,"eaa":3693,"reas":3694,"Data":3695,"7571336":3696,"171":3697,"edb":3698,"RIBU":3699,"278":3700,"irst":3701,"812":3702,"RIBUTION":3703,"Ġ473":3704,"Ġ257":3705,"093":3706,"133":3707,"528":3708,"623":3709,"StartTime":3710,"trieve":3711,"123":3712,"976":3713,"Vol":3714,"dow":3715,"chase":3716,"vest":3717,"531":3718,"Ġinitialize":3719,"increase":3720,"cfd":3721,"25200":3722,"Volume":3723,"163":3724,"Ġ511":3725,"296":3726,"CONTRIBUTION":3727,"ADDRESS":3728,"reasur":3729,"398":3730,"MintAgent":3731,"Ġ75000000000":3732,"Ġ72000000000":3733,"080000000000":3734,"ultisig":3735,"Ġ2001":3736,"503":3737,"909":3738,"available":3739,"kle":3740,"Ġ623":3741,"uthorizeOperator":3742,"605":3743,"821":3744,"stake":3745,"ending":3746,"Ġ594":3747,"Ġ585":3748,"changeOwner":3749,"ĠchangeOwner":3750,"kleRoot":3751,"579":3752,"Ġregister":3753,"Ġ53000000000":3754,"Ġ346":3755,"Ġ402":3756,"commit":3757,"Filled":3758,"blockAccount":3759,"Ġ524":3760,"Ġ300000000000":3761,"granu":3762,"larity":3763,"granularity":3764,"Ġ317":3765,"ĠbalanceOfAt":3766,"Create":3767,"balanceOfAt":3768,"622":3769,"874":3770,"272":3771,"Ġ1000000000000000":3772,"Ġ460":3773,"135":3774,"7163":3775,"ĠtotalSupplyAt":3776,"Ġregistry":3777,"ĠsetName":3778,"ToICAPWithReference":3779,"totalSupplyAt":3780,"563":3781,"dOwner":3782,"dad":3783,"9904":3784,"registry":3785,"testTrade":3786,"Ġcollect":3787,"Ġ63000000000":3788,"mountFilled":3789,"891":3790,"Pending":3791,"Ġ503":3792,"initialize":3793,"Ġ327":3794,"released":3795,"Ġ413":3796,"Ġ608":3797,"66117276":3798,"470801":3799,"Ġ84000000000":3800,"Ġ16728261":3801,"Ġ7736399":3802,"0791470801":3803,"Ġ167282610791470801":3804,"Gen":3805,"ALE":3806,"ei":3807,"Ġ397":3808,"Ġreleased":3809,"itty":3810,"00000001":3811,"Ġ37000000000":3812,"0227":3813,"676":3814,"Grants":3815,"Ġ555":3816,"424":3817,"677":3818,"Dra":3819,"0000000000000000000000000000000000000000000000000000000000000006":3820,"478":3821,"Ġ554":3822,"416":3823,"766":3824,"Ġad":3825,"Ġ2000000000000000000":3826,"122":3827,"576":3828,"setName":3829,"535":3830,"768":3831,"593":3832,"811":3833,"Ġ319":3834,"Target":3835,"canUpgrade":3836,"Ġ343":3837,"ĠcanUpgrade":3838,"fit":3839,"Ġ46000000000":3840,"Ġex":3841,"292":3842,"irth":3843,"Contributed":3844,"1545":3845,"Tradeable":3846,"istra":3847,"AR":3848,"Ġ286":3849,"7912":3850,"277":3851,"518":3852,"Ġ571":3853,"Ġ624":3854,"TokensFor":3855,"Ġ39000000000":3856,"Ves":3857,"Vested":3858,"collect":3859,"0016":3860,"0000000000000000000000001":3861,"Mar":3862,"Ġ467":3863,"7539":3864,"AccountLevelsAddr":3865,"accountLevelsAddr":3866,"436":3867,"192":3868,"525":3869,"adata":3870,"])":3871,"])':":3872,"Ġ492":3873,"2187":3874,"Ġ180000":3875,"Ġ259":3876,"Plan":3877,"8145":3878,"Birth":3879,"RN":3880,"839":3881,"02000":3882,"Ġ426":3883,"Ġ71000000000":3884,"Planet":3885,"Ġ564":3886,"7468":3887,"reasury":3888,"9193":3889,"6105":3890,"execute":3891,"BURN":3892,"Ġ538":3893,"ily":3894,"311":3895,"516":3896,"Ġ10000000":3897,"21004745":3898,"0924":3899,"Ġ625":3900,"rketingWallet":3901,"Bid":3902,"Ġ442":3903,"ĠwithdrawToken":3904,"863":3905,"895":3906,"0000000000000000000000000000000000000000000000000000000000000000000000000":3907,"Nonce":3908,"796":3909,"onERC":3910,"3899":3911,"Ġ61000000000":3912,"Pla":3913,"626":3914,"845":3915,"maxSupply":3916,"Ġ2000000000000000":3917,"Profit":3918,"Ġ329":3919,"Ġ1198":3920,"6103":3921,"uration":3922,"Ġ309":3923,"Ġ698":3924,"9791":3925,"Ġ356":3926,"xyType":3927,"Ġ56000000000":3928,"Ġ367":3929,"Ġ392":3930,"Ġ622":3931,"Ġ441":3932,"Ġ282":3933,"763":3934,"blic":3935,"0624":3936,"Ġ283":3937,"Ġ523":3938,"Ġ1204":3939,"TokenExchange":3940,"dateMain":3941,"MigrationPhase":3942,"DateMain":3943,"questTokenExchange":3944,"Ġ774":3945,"Ġ1203":3946,"Connector":3947,"Ġ58000000000":3948,"513":3949,"Ġ300000000000000000":3950,"7600":3951,"pendingAdmin":3952,"692":3953,"0004":3954,"625":3955,"Callback":3956,"DU":3957,"Ġ489":3958,"withdrawTokens":3959,"ĠwithdrawTokens":3960,"Ġ674":3961,"oAddress":3962,"Ġsplit":3963,"Ġ513":3964,"0431":3965,"463":3966,"507":3967,"Ġ95000":3968,"000000000000000000000000000000000000000000000000000000000000000000000000000000000000000000000000000000000000000000000000000000000000000000000000000000000000000000000000000000000000000000000000000000000000000000000000000000000000000000000000":3969,"register":3970,"2488":3971,"490":3972,"Ġ40000000000000000":3973,"iswapV":3974,"396":3975,"511":3976,"673":3977,"868":3978,"411":3979,"Ġ578":3980,"332":3981,"Ġ330":3982,"132":3983,"422":3984,"Safe":3985,"cation":3986,"ĠdepositToken":3987,"072":3988,"276":3989,"Ġ451":3990,"batchTransfer":3991,"Ġ548":3992,"Ġ566":3993,"00000000000000000000000000000000000000000000000000000000000000002":3994,"506":3995,"864":3996,"Ġ1173":3997,"Ġ621":3998,"RATION":3999,"DURATION":4000,"Ġ49000000000":4001,"Ġ347":4002,"9570":4003,"672":4004,"Ġ545":4005,"AccountIs":4006,"Ġ586":4007,"1808":4008,"withdrawToken":4009,"Ġ1825":4010,"2608":4011,"0000000000000000000000000000000000":4012,"Ġ407":4013,"Propos":4014,"Issue":4015,"21000":4016,"3333":4017,"9794":4018,"7000000000000000000000000":4019,"816":4020,"02001":4021,"Ġ668":4022,"enableTransfers":4023,"ĠenableTransfers":4024,"066":4025,"ouse":4026,"772":4027,"enti":4028,"Ex":4029,"Prices":4030,"9800":4031,"7905":4032,"Authori":4033,"302":4034,"402":4035,"8000000000000000000000000":4036,"Metadata":4037,"Al":4038,"Ġ250000000000000000":4039,"Ġ1163":4040,"Ġ574":4041,"erly":4042,"erlying":4043,"000000000000000000000000000000000000000000000000000000000000003":4044,"day":4045,"Addresses":4046,"Ġ6666":4047,"Ġ675":4048,"Issued":4049,"7295":4050,"Next":4051,"Ġ600":4052,"00000000000000000000000000000000000000000000000000000000000000000000000000":4053,"Ġ693":4054,"Open":4055,"Ġ427":4056,"ccad":4057,"709":4058,"Ġ422":4059,"72000":4060,"6467":4061,"0000000000000000000000000000000000000000000000000000000064":4062,"096":4063,"Investor":4064,"freezeAccount":4065,"Ġ699":4066,"Ġ1228":4067,"ĠisToken":4068,"999999":4069,"isToken":4070,"7820":4071,"Ġ150000000000000000":4072,"allowTransfers":4073,"790":4074,"Ġ765":4075,"Ġ443":4076,"9695":4077,"Ġ1328":4078,"ĠatomicMatch":4079,"Dis":4080,"NA":4081,"Authenti":4082,"Authentication":4083,"igner":4084,"0819":4085,"Ġ661":4086,"Ġ362":4087,"Rando":4088,"Random":4089,"Ġ1444":4090,"valid":4091,"Ġ575":4092,"depositToken":4093,"2588":4094,"572":4095,"Ġ601":4096,"477":4097,"606":4098,"126":4099,"707":4100,"792":4101,"Ġ120000000000000000":4102,"65000":4103,"7200":4104,"Ġ110000000000":4105,"Ġ1305":4106,"card":4107,"809":4108,"Ġ1308":4109,"1251":4110,"431":4111,"532":4112,"866":4113,"Drain":4114,"Ġ69163":4115,"setAuthority":4116,"ĠsetAuthority":4117,"ĠmaxSupply":4118,"mergencyERC":4119,"6374342":4120,"Ġ366":4121,"Ġ250":4122,"6573":4123,"Ġ64000000000":4124,"ĠuniswapV":4125,"Ġ320":4126,"Ġ512":4127,"3056":4128,"Ġ349":4129,"Ġ1194":4130,"826":4131,"Ġ409":4132,"6461":4133,"57600080":4134,"64759":4135,"Ġ55000":4136,"479":4137,"ffer":4138,"106":4139,"702":4140,"est":4141,"Ġ88000000000":4142,"Ġauthority":4143,"authority":4144,"5493":4145,"Ġ342":4146,"806":4147,"Qui":4148,"Ġ738":4149,"UNIT":4150,"Quick":4151,"476":4152,"Ġ588":4153,"li":4154,"Ġ568":4155,"66000":4156,"392":4157,"Ġ543":4158,"ĠorderFills":4159,"196":4160,"Ġ496":4161,"Ġ417":4162,"NewOwner":4163,"VestedTokens":4164,"376":4165,"Ġ310":4166,"UnsoldTokens":4167,"1515":4168,"Ġ1858":4169,"orderFills":4170,"25000":4171,"NAME":4172,"multi":4173,"Ġnominate":4174,"2854":4175,"7887":4176,"ID":4177,"0000000002":4178,"Ġ5011882":4179,"72744793":4180,"Ġ666672744793":4181,"Ġ6666727447937912":4182,"ign":4183,"Ġ1200":4184,"Ġacti":4185,"forward":4186,"Ġopen":4187,"Ġ406":4188,"Ġ94795":4189,"512":4190,"3363":4191,"Ġ522":4192,"2828":4193,"7574":4194,"0799":4195,"0905":4196,"feeAccount":4197,"ĠfeeAccount":4198,"2168":4199,"Ġ815":4200,"rowdFundAddress":4201,"open":4202,"LOCK":4203,"297":4204,"Ben":4205,"Ġ481":4206,"Ġ598":4207,"207":4208,"Out":4209,"0101":4210,"7335":4211,"GEN":4212,"Card":4213,"2525":4214,"Ġ1223":4215,"000000000000000000000000000":4216,"Ġ357":4217,"xebe":4218,"Beneficiary":4219,"820":4220,"ak":4221,"eeeeeeeeeeeeeeeeeeeeeeeeeeeeeeee":4222,"2408":4223,"Ġ1575":4224,"Ġ369":4225,"visorTokens":4226,"0000000000000000000000000000000000000000000000000000000000000002000000000000000000000000":4227,"529":4228,"250000000000":4229,"arted":4230,"172":4231,"Ġ1301":4232,"leaseAd":4233,"0000000000000000000000000000000000000000000000000":4234,"Ġ999":4235,"025200":4236,"visorsAllocation":4237,"Symbol":4238,"Ġ1325":4239,"7361":4240,"5448":4241,"visorAddress":4242,"PresaleSupply":4243,"497":4244,"EnjinTeam":4245,"incentivisation":4246,"1163":4247,"ToAllocation":4248,"Ġ1368":4249,"ĠenjinTeam":4250,"enjinTeam":4251,"totalAllocatedTo":4252,"ĠtotalAllocatedTo":4253,"serve":4254,"ENJ":4255,"Ġincentivisation":4256,"ĠswapExactTokensFor":4257,"CrowdsaleAllocation":4258,"trieveUnsoldTokens":4259,"leaseAdvisorTokens":4260,"EnjinTeamTokens":4261,"Me":4262,"836":4263,"lf":4264,"9123":4265,"6365":4266,"8104":4267,"750000000000":4268,"covered":4269,"830":4270,"ilyLimit":4271,"Ġ595":4272,"00000000000000000000000000000000000000000000000000000000000000000000000000000000000000000000000000000000000000000000000000000001":4273,"592":4274,"OperatorFor":4275,"5129":4276,"Ġ603":4277,"Ch":4278,"6145":4279,"eeeeeeeeeeeeeeeeeeeeeeeeeeeeeeeeeeeeeeee":4280,"Wei":4281,"2801":4282,"Ġ250000000000":4283,"Ġgrant":4284,"629":4285,"6568":4286,"427":4287,"2508":4288,"Ġ1365":4289,"Ġ62000000000":4290,"Ġ472":4291,"Ġ516":4292,"280000000000":4293,"Ġ1599":4294,"Ġ705":4295,"Ġ73000000000":4296,"faultOperators":4297,"Player":4298,"Pool":4299,"131":4300,"3408":4301,"6663":4302,"6165":4303,"Ġ99244":4304,"Bonus":4305,"Ġ457":4306,"Ġ1323":4307,"ĠreleaseTokenTransfer":4308,"620":4309,"Ġ818":4310,"TotalSupply":4311,"releaseTokenTransfer":4312,"SiringAuction":4313,"71000":4314,"Ġ764":4315,"179":4316,"Ġ799":4317,"0448":4318,"0208":4319,"433":4320,"Ġ1799":4321,"Ġ11533":4322,"SwapCallback":4323,"SY":4324,"6875":4325,"xfca":4326,"000000000000000000000000000000000000000000000000000000000000008000000000000000000000000000000000000000000000000000000000000000":4327,"sDe":4328,"7348":4329,"Aler":4330,"migration":4331,"Ġ502":4332,"ĠpendingOwner":4333,"92000":4334,"9053":4335,"Ġmigration":4336,"Ġ57000000000":4337,"6456":4338,"Ġ665":4339,"Ġ1078":4340,"7006":4341,"ination":4342,"Ġ200000000":4343,"stination":4344,"876347":4345,"4000000000000000000000000":4346,"9103":4347,"00000000000000000000000000000000000000000000000000000000000002":4348,"Ġ694":4349,"Ġ43000000000":4350,"596":4351,"nsity":4352,"ĠgetDis":4353,"PlanetsDe":4354,"coveredPlanetsDe":4355,"ĠgetDiscoveredPlanetsDe":4356,"ĠgetDiscoveredPlanetsDensity":4357,"609":4358,"ots":4359,"6450":4360,"urchase":4361,"Ġ1514":4362,"ĠreleaseAgent":4363,"837":4364,"releaseAgent":4365,"setReleaseAgent":4366,"ĠsetReleaseAgent":4367,"Multisig":4368,"Ġ1374":4369,"irstDay":4370,"transferAgents":4371,"ĠtransferAgents":4372,"setTransferAgent":4373,"Ġ1271":4374,"ĠsetTransferAgent":4375,"879":4376,"6401":4377,"076":4378,"7738":4379,"DAO":4380,"Ġ1593":4381,"Ġ17454":4382,"callback":4383,"Ġcontract":4384,"BOL":4385,"MBOL":4386,"7534":4387,"SYMBOL":4388,"ant":4389,"Ġ533":4390,"ĠsetAdmin":4391,"640000000000":4392,"setAdmin":4393,"7224":4394,"75000":4395,"changeController":4396,"ĠchangeController":4397,"Breed":4398,"fundingStartBlock":4399,"5001489":4400,"ĠfundingStartBlock":4401,"6878":4402,"lose":4403,"8095":4404,"730585":4405,"129":4406,"OS":4407,"98000":4408,"Distribution":4409,"366":4410,"baseURI":4411,"0305":4412,"Ġ1068":4413,"Require":4414,"ĠbaseURI":4415,"82803":4416,"Ġ593":4417,"7868":4418,"Ġ793":4419,"underlying":4420,"1644":4421,"16000":4422,"829":4423,"Ġ360":4424,"pose":4425,"0018":4426,"01000":4427,"03000000000":4428,"Ġ551":4429,"6164":4430,"397":4431,"28000":4432,"2024":4433,"867":4434,"0196":4435,"Ġ573":4436,"claimEther":4437,"ert":4438,"78000":4439,"Blacklist":4440,"current":4441,"2171":4442,"deac":4443,"Ġ3000000000000000":4444,"5855":4445,"Ġ583":4446,"Ġ1595":4447,"xbdd":4448,"check":4449,"Game":4450,"Ġ1395":4451,"Ġ103730585":4452,"Ġ1537778":4453,"9730346":4454,"Ġ1037305859730346":4455,"Ġ1037305859730346655":4456,"ĠgetRandom":4457,"Proposal":4458,"vide":4459,"6871":4460,"Ġ1798":4461,"Ġ333333":4462,"527":4463,"0000000000000000000000000000000000000000":4464,"680000000000":4465,"1888":4466,"426":4467,"38000":4468,"760000000000":4469,"384838":4470,"Ġ775":4471,"000000000000000000000000000000000000000000000000000000000000000000000000000000000000000000000000000000000000000000000000000000000000000000000000000000000000000000000000000000000000000000000000":4472,"COR":4473,"Ġ562":4474,"61247":4475,"0793":4476,"Ġ795":4477,"Ġ105000000000":4478,"2420":4479,"9875":4480,"870":4481,"Ġ482":4482,"Ġ553":4483,"3864":4484,"04000":4485,"Ġ18384838":4486,"684656":4487,"167684656":4488,"fundingEndBlock":4489,"ĠfundingEndBlock":4490,"Ġ17454167684656":4491,"Ġ174541676846560136":4492,"Ġ339":4493,"Ġ1448":4494,"73000":4495,"Ġ1065":4496,"frozenAccount":4497,"Ġ287":4498,"0036":4499,"406":4500,"74010":4501,"2394":4502,"Ġ1728":4503,"Ġcurrent":4504,"Ġ108000000000":4505,"127":4506,"Ġ824":4507,"0894":4508,"63592":4509,"0191":4510,"7228":4511,"Authorized":4512,"63000":4513,"Ġ628":4514,"xadd":4515,"Ġ844":4516,"920000000000":4517,"ĠfrozenAccount":4518,"Ġ69000000000":4519,"0014":4520,"6375":4521,"Ġ638":4522,"ĠfreezeAccount":4523,"shot":4524,"6565":4525,"9605":4526,"07000":4527,"Ġ531":4528,"6883":4529,"Ġ1464":4530,"09000":4531,"xdcdf":4532,"Ġ507":4533,"6423":4534,"claimOwnership":4535,"ĠclaimOwnership":4536,"290":4537,"Ġ704":4538,"ĠsetFee":4539,"466":4540,"4549":4541,"Ġ678":4542,"Ġ2200000000":4543,"Ġ75000":4544,"Ġwhitelist":4545,"7300":4546,"9694":4547,"Started":4548,"vidend":4549,"000000000000000000000000000000":4550,"7364":4551,"setFee":4552,"sset":4553,"Ġ671":4554,"governor":4555,"590":4556,"Ġ1518":4557,"0771":4558,"lockedTokens":4559,"num":4560,"Ġ456":4561,"yPath":4562,"0408":4563,"Ġ2001000000":4564,"522":4565,"9738":4566,"Ġ483":4567,"Ġ517":4568,"Ġ1294":4569,"Ġ664":4570,"mergency":4571,"Ġ701":4572,"ĠtestCopy":4573,"780000000000":4574,"7604":4575,"7794":4576,"55205":4577,"Ġ721":4578,"Ġ121000":4579,"827":4580,"Ġ506":4581,"rt":4582,"166":4583,"Sw":4584,"Ġ835":4585,"7395":4586,"0700":4587,"Ġ4973":4588,"Ġ1424":4589,"efore":4590,"2118":4591,"509":4592,"User":4593,"pent":4594,"0000000004":4595,"Ġ1199":4596,"0347":4597,"1111":4598,"838119":4599,"7221":4600,"Ġ1668":4601,"maining":4602,"hal":4603,"3495":4604,"7664":4605,"3118":4606,"536":4607,"xdfe":4608,"Ġ59000000000":4609,"Ġ76000000000":4610,"2823":4611,"7808":4612,"020000000000":4613,"720000000000":4614,"7724":4615,"Ġ725":4616,"7158":4617,"0045":4618,"7565":4619,"Ġ1791":4620,"2105":4621,"Ġ25000":4622,"BuyPath":4623,"whitelist":4624,"2495":4625,"tokenCreationMin":4626,"ĠtokenCreationMin":4627,"vWallet":4628,"Ġ1855":4629,"0774":4630,"Ġco":4631,"9861":4632,"xbfa":4633,"1561":4634,"5909":4635,"68000":4636,"3819":4637,"6334":4638,"Today":4639,"Ġ1865":4640,"3808":4641,"setTokenInformation":4642,"ĠsetTokenInformation":4643,"tokenCreationCap":4644,"ĠtokenCreationCap":4645,"Ġ1691":4646,"7365":4647,"Ġ1405":4648,"EndTime":4649,"000000000000000000000000000000000000000000":4650,"2308":4651,"2378":4652,"7603":4653,"Ġ5580000000000000":4654,"xfff":4655,"eeper":4656,"93000":4657,"2500":4658,"1681":4659,"creationBlock":4660,"7575":4661,"ĠcreationBlock":4662,"Before":4663,"Ġ1201":4664,"5050505":4665,"Ġ776":4666,"Available":4667,"Ġtra":4668,"Ġblacklist":4669,"Ġ1451":4670,"0000000000000000000000000000":4671,"9946":4672,"75143":4673,"7443":4674,"2575":4675,"ear":4676,"pentToday":4677,"Ġ340":4678,"Ġ497":4679,"6154":4680,"9428":4681,"00000000000000000000":4682,"Ġ814":4683,"ĠgenerateTokens":4684,"Ġ453":4685,"0601":4686,"1108":4687,"Ġ289":4688,"transferAnyERC":4689,"7527":4690,"2103":4691,"3805":4692,"ĠtransferAnyERC":4693,"Ġ94000000":4694,"REA":4695,"77000":4696,"120":4697,"807":4698,"9418":4699,"Ġ808":4700,"Ġ1468":4701,"Ġ1335":4702,"ĠdestroyTokens":4703,"destroyTokens":4704,"ssert":4705,"Ġ130000000000":4706,"02129":4707,"Ġ1726":4708,"7368":4709,"3438":4710,"ccbd":4711,"Ġ446":4712,"6354":4713,"6699":4714,"107":4715,"0203":4716,"960000000000":4717,"730000000000":4718,"Rank":4719,"9221":4720,"RO":4721,"7324":4722,"7264":4723,"0034":4724,"alloca":4725,"7803":4726,"Ġ1503":4727,"Ġ1304":4728,"Ġ81000000000":4729,"2808":4730,"7465":4731,"1273":4732,"0015":4733,"Ġ47000000000":4734,"309":4735,"862":4736,"Ġ447":4737,"Ġ419":4738,"Ġ724":4739,"9371":4740,"Ġ1474":4741,"97000":4742,"ContractAddress":4743,"379":4744,"3000000000000000000000000":4745,"7238":4746,"7768":4747,"Ġ74000000000":4748,"000000000000000000000000000000000000":4749,"7573":4750,"0445":4751,"7152":4752,"6498":4753,"Ġ429":4754,"Ġ1291":4755,"Sell":4756,"740000000000":4757,"0301":4758,"7663":4759,"Ġ1705":4760,"9854":4761,"9665":4762,"Comm":4763,"Ġ557":4764,"00000002":4765,"Claimed":4766,"Ġ1175":4767,"Ġ1338":4768,"Ġ10526":4769,"2594":4770,"7475":4771,"Ġ1191":4772,"74973":4773,"ZER":4774,"Requirement":4775,"ZEROS":4776,"6435":4777,"Ġ1488":4778,"Ġ45000":4779,"Ġ132000000000":4780,"Ġ359":4781,"Ġ385":4782,"7605":4783,"7693":4784,"7773":4785,"0708":4786,"Ġ975":4787,"Setter":4788,"Community":4789,"6113":4790,"2127":4791,"Ġ1118":4792,"74261":4793,"61951":4794,"Ġ80000000000000000":4795,"7275":4796,"7675":4797,"Ġ1278":4798,"34764":4799,"944000":4800,"split":4801,"romo":4802,"Ġ1303":4803,"Ġ90000000":4804,"Ġ22000":4805,"igrated":4806,"2843":4807,"2188":4808,"Ġ280":4809,"Ġprice":4810,"0138":4811,"7805":4812,"6665":4813,"Ġ67000000000":4814,"2524":4815,"Ġ584":4816,"9853":4817,"2348":4818,"Ġ1505":4819,"SaleAuction":4820,"Ġ45038":4821,"2100":4822,"2361":4823,"Ġgovernance":4824,"Ġ430":4825,"Ġ459":4826,"6335":4827,"0971":4828,"itialized":4829,"StopReceive":4830,"0000000000000000000000000000000000000000000000000000000000000022":4831,"6144":4832,"Ġ60000000000000000":4833,"Ġ104000000000":4834,"896":4835,"7855":4836,"9024":4837,"0668":4838,"7601":4839,"2228":4840,"erator":4841,"2328":4842,"0000000000000000000000000000000000000000000000000000000000000005":4843,"xdcdc":4844,"if":4845,"9704":4846,"Withdrawal":4847,"NCOR":4848,"Use":4849,"Ġ350":4850,"2358":4851,"Ġ77000000000":4852,"BANCOR":4853,"942461":4854,"9338":4855,"Ġ663":4856,"7903":4857,"099843":4858,"697":4859,"690":4860,"7261":4861,"980000000000":4862,"2393":4863,"Ġ825":4864,"Ġ97000000000":4865,"0608":4866,"432":4867,"Ġ436":4868,"0103":4869,"Ġ537":4870,"tokenFactory":4871,"ĠtokenFactory":4872,"parentToken":4873,"ĠparentToken":4874,"VE":4875,"2194":4876,"ĠisFinalized":4877,"isFinalized":4878,"040000000000":4879,"increaseNonce":4880,"307":4881,"InactivityReleasePeriod":4882,"Ġ901":4883,"Ġ703":4884,"0000000000000000000000007":4885,"validateOrders":4886,"ActiveTransaction":4887,"validOrder":4888,"validateOrdersBefore":4889,"240000000000":4890,"407":4891,"Lo":4892,"7303":4893,"8140":4894,"parentSnapShotBlock":4895,"ĠparentSnapShotBlock":4896,"dCount":4897,"2578":4898,"380000000000":4899,"23000":4900,"Ġ91000000000":4901,"Ġ410":4902,"990000000000":4903,"Ġ805":4904,"0000000000000000000000006":4905,"7265":4906,"9061":4907,"9600":4908,"7700":4909,"ĠcreateCloneToken":4910,"createCloneToken":4911,"6393":4912,"0705":4913,"Coin":4914,"Ġ437":4915,"9765":4916,"9664":4917,"710000000000":4918,"fccce":4919,"Ġ552":4920,"9863":4921,"Ġ708":4922,"Marketing":4923,"74000":4924,"9625":4925,"0768":4926,"9145":4927,"7764":4928,"090000000000":4929,"Ġ771":4930,"200000000":4931,"aking":4932,"2191":4933,"9208":4934,"Ġunfreeze":4935,"unfreeze":4936,"7318":4937,"9815":4938,"Ġ1165":4939,"838250":4940,"CreatedCount":4941,"xbddccd":4942,"74261145":4943,"6855":4944,"Ġ519":4945,"6888":4946,"Ġ801":4947,"6604":4948,"Ġ1694":4949,"2334":4950,"72036":4951,"6865":4952,"SaleContract":4953,"010000000000":4954,"0808":4955,"429":4956,"0041":4957,"Ġ1195":4958,"2818":4959,"7518":4960,"7435":4961,"0900":4962,"Ġ85000000000":4963,"Ġ546":4964,"3818":4965,"Ġ803":4966,"Ġ1501":4967,"1565":4968,"Ġ1024":4969,"177":4970,"6434":4971,"6125":4972,"6345":4973,"2565":4974,"Ġ888":4975,"feddc":4976,"Ġminters":4977,"9674":4978,"Ġ96000000000":4979,"7835":4980,"0205":4981,"660000000000":4982,"DATE":4983,"2858":4984,"Ġ1516":4985,"0625":4986,"7608":4987,"950000000000":4988,"0299":4989,"minters":4990,"Ġ78000000000":4991,"9154":4992,"TOKENS":4993,"64000":4994,"2304":4995,"7225":4996,"9204":4997,"Ġ1434":4998,"Ġ23300":4999}